D48
19B
183
073
265
009
C8D
F6D
EAF
F1C
20D
C95
E21
CBC
ED2
FAB
009
268
D1B
1DF
3D1
FC0
FA1
A6F
E8B
DB8
23A
E5D
0FF
F36
415
F0A
D9A
16A
EF4
198
131
1E5
57A
389
363
DB2
0C9
FAE
E60
F5D
D83
FFE
D85
E38
C88
07D
012
049
D8A
045
EEF
EF6
E48
043
D90
F0F
D35
0A4
1F6
179
1FA
0CC
EBB
D7A
F50
19F
28E
C94
218
1CC
D39
1D5
ECE
012
038
D89
078
D50
FF4
1B5
15A
FDC
F7B
0F7
FCA
E9F
F14
12F
011
270
014
0D3
208
F51

