7E1
361
4B8
775
764
4B4
53B
05D
537
7B7
598
196
2CB
734
5A6
745
2FA
379
744
4CB
1F7
287
366
76E
460
4F5
546
34A
07C
6CD
49F
59D
1C2
45F
7D6
5BC
1C1
03E
687
027
6BF
150
0AC
374
139
65A
35C
57B
514
733
23D
322
4FE
084
5ED
066
119
63A
651
369

