1BB
02A
034
1A0
037
196
01A
1F4
196
009
1A9
19B
045
1B6
1C7
1C2
1CE
020
1EB
007
1C0
1B2
031
1D3
005
033
01D
1C8
18E
1B7
040
1E0
011
1E4
1AF
046
011
1A8
1D4
018
1E8
007
004
1E9
057
04D
014
1A3
196
1B6
1EF
1CF
1C3
066
1FE
003
1A7
1B2
1C5
197
057
070
1A9
032
1A4
1D0
1CD
056
1BC
00A
1CB
074
1F2
1BD
05E
058
1AD
03F
004
020
1B4
05B
016
1F4
00B
1B1
02C
1CF
025
1CD
059
1E4
1CE
1BD
1A0
04A
189
1BF
1CC
054
06B
01D
1D1
018
054
03A
1EA
01E
1D8
03E
1B0
19D
1F2
1F0
1E1
01A
046
00B
020
03C
1D0
1E9
1F1
1B8
048
1CD
047
19C
000
056
036
004
192
05F
061
1CF
185
1CB
015
033
066
02E
02D
1DE
1DD
1B9
011
1AA
04D
005
059
199
01C
1DB
19F
1B9
1FC
05D
1B0
037
1CF
072
1A2
1A5
01B
19A
1FE
002
1E4
007
06D
1C9
1B7
00F
03A
1AA
067
1C6
01F
1D8
065
069
010
1F7
1AB
1A1
06D
022
06D
029
02D
1C8
1B1
1FE
1A4
1B6
1FF
1D1
1E1
1A8
02E
066
1EB
059
068
1A5
042
1B3
1B7
1F4
02B
1DE
1A7
1B1
007
195
05B
1FB
025
1C0
1F7
192
019
05F
1A6
1A1
04E
1FB
1EF
1C4
1FC
1D5
1FB
19F
1F0
1C6
1C8
053
068
055
198
018
1D4
1C9
1A0
052
006
1AB
1EF
001
1BC
1F8
1B2
00F
1E8
03A
086
1D0
1C2
005
1C5
1F6
018
1A3
04D
1D2
052
036
1AA
19F
1C0
1A8
02B
045
1C2
1DB
1E9
1DB
026
1FC
077
1B3
1E6
1C7
1FB
1DD
1E1
1DA
004
199
00F
199
190
1AA
014
1F5
025
1EA
1D4
030
1C0
005
065
03F
1EC
1D0
066
1DA
00D
1CF
19D
1E5
1D6
1EC
1B9
056
1AF
1F5
1DC
073
022
018
1CC
042
067
049
1C0
1AE
023
048
01F
1BA
1C9
1A1
029
1D2
063
1BB
01D
05F
067
072
1B4
00F
1E2
1AA
028
014
1F6
1DD
05B
1ED
06A
05D
001
011
1AB
1B8
068
063
04E
026
1EC
05B
05F
03C
01F
059
1B7
05A
1A6
1C1
05B
1E1
1EF
1F3
1CA
041
196
02D
047
18B
018
1B0
042
00B
046
1C4
1B8
1C8
196
008
047
1E9
01B
048
1B6
010
1CF
1B4
005
1BF
05E
1EB
056
1A7
18F
047
00C
199
1AD
04A
1F8
009
1B5
1A2
078
1B4
1FD
055
1FD
06F
048
196
038
063
038
051
001
06E
03E
059
1D3
012
01B
056
009
1AB
075
1C8
1D5
052
1BF
023
01C
025
03A
1AC
01B
050
05E
021
1DF
1E8
03C
062
005
030
1BA
003
1C0
1B8
1EF
1B2
1AC
193
06A
19E
045
1BF
004
1D7
1F9
03F
033
03B
1C2
025
1FD
04B
002
05B
027
19F
014
1C5
043
042
060
1B2
1F0
025
1F6
037
19F
007
199
062
03D
050
1CE
1E6
1EC
009
020
029
047
1C4
022
05A
05A
003
1DC
02A
19F
025
025
032
071
1C6
01D
1DD
194
03D
1CA
1FE
1D8
1B0
1E6
005
1D5
1EA
1A2
057
002
04F
03D
04F
1A8
1E9
1C6
043
1F6
1E6
1C5
012
057
1B0
045
04C
05A
05B
1C5
02E
039
1B0
005
1CC
1D7
038
1F0
197
187
1F3
1B9
1F3
1A8
028
1CD
044
024
19D
046
1D1
19A
19F
1B2
04A
00A
1BD
01B
1DB
017
19B
1AB
049
02E
1F0
015
1FB
035
04F
059
1A5
056
04F
042
035
1AA
1E1
043
1C4
1E9
1B8
1FE
1F5
034
1AE
046
045
05B
1F1
040
01C
025
041
05C
19F
1D8
1B9
048
02A
19A
1A4
19F
1F2
066
05C
1D9
032
1B7
04E
03F
1D6
1BF
1C1
068
05C
1C7
1CB
063
1A9
043
1ED
1F0
02C
1CD
032
1C5
1CF
070
01E
1CC
040
1B7
026
049
1A8
18F
1FB
065
1D2
007
1D0
1DF
1C4
012
01E
058
1AC
008
1C7
062
1D6
044
021
1F8
1CD
193
00C
008
1C3
1D3
1D2
009
19F
050
006
1B8
00E
034
1FF
030
1AD
01E
023
025
19B
1EE
1D8
1A5
01F
1EB
19F
012
1C5
1B8
1B3
06E
05F
1CD
196
1F6
05A
05C
1ED
1CA
020
1EB
1C1
064
06C
01B
00D
01C
1E1
1B7
1DE
1AF
011
010
004
1B1
031
01A
023
1D3
1C2
044
1FF
069
1DA
1EE
05D
066
1BA
020
019
1F3
040
1EA
017
1AE
001
066
013
1CD
014
1B7
1C9
1A3
032
1A8
024
1A5
008
1AD
1AB
019
1BA
1AC
198
1FF
053
038
065
1D1
020
033
1E9
1EB
19E
1FA
066
016
062
19C
037
1AB
1A5
03D
028
19D
00F
008
197
06F
1F0
00E
19B
059
03A
1EB
1CC
047
1B4
05C
1A8
1D3
1BC
18E
1A4
1EB
1FA
038
045
1C2
1A9
041
1E5
1E5
1A6
046
009
013
06B
1BD
008
020
062
1DB
061
1A8
026
039
039
007
1C4
052
1D5
02C
1E9
19D
1EA
1F8
051
03A
033
019
003
194
1AE
02E
04C
04A
1A4
07A
198
1F0
1C8
04B
1FC
064
05B
065
062
056
055
1A3
044
1EA
18B
1E6
025
1E9
1D4
1F9
03C
057
036
1D0
018
1A8
04B
021
033
1BA
040
1C2
1A0
067
1C7
011
06A
02B
014
05B
1EC
02C
1AE
1DA
1F6
05A
004
00A
059
1BF
062
19E
197
049
004
1F5
02B
069
1AA
02C
03B
064
19A
1EB
03B
058
042
1DD
1CD
071
19D
009
048
06B
06D
1E1
037
1F6
039
02C
1BB
053
1C1
198
02C
1FB
1EA
1E1
042
1D9
1E6
041
1BB
06D
05B
02E
1BA
191
1C0
028
020
1C7
040
1C9
053
1BC
1F0
043
1FB
01B
02B
1B5
1A3
1F7
1C4
05A
03B
042
014
00C
1A0
024
050
046
00E
1E4
1EE
05C
02B
003
1EE
02A
1A0
1EF
02A
038
02A
011
05E
043
1AD
049
024

